00000000 00000000 00000000 0068CB61 00000000 00000000 004EBE66 00000000 00000000 00000000 005FD08D 0069D8CF 00F1177C 00AF3F4A 00A190C9 00000000 007C1FE2 00000000 0171F570 00000000 00000000 00000000 00000000 00000000 00000000 00000000 00000000 01046A61 0033CA6C 006D8BB9 00000000 00000000 0050A99D 00000000 00837002 00884265 00000000 00000000 00AC628A 00869503 006261BD 00000000 00000000 00000000 00354F35 00000000 0056C673 00ABD080 00000000 00000000 007A2FD9 00000000 00000000 00000000 00000000 00A22A9D 00000000 003F2222 00000000 005C26F3 004F914D 000A7E34 00000000 004D3C51