0x000000C5
0x0000002E
0x0000FED4
0x0000013B
0x000000A0
0x0000FEFF
0x0000FFAD
0x000000CC
0x00000136
0x000000E1
0x0000FF7D
0x0000FF4D
0x00000077
0x0000FF8A
0x00000108
0x0000FF76
0x0000000A
0x0000FFE3
0x0000FEC9
0x00000012
0x0000FF18
0x0000FED1
0x000000B8
0x0000FFA1
0x0000FFD6
0x00000117
0x00000096
0x00000010
0x0000FF7B
0x0000005F
0x0000FE9B
0x0000FF53
0x0000011D
0x0000FF3B
0x0000FFF0
0x00000076
0x0000003F
0x0000FF78
0x0000FEFD
0x0000013A
0x000000F5
0x0000FFDF
0x000000A6
0x0000FF78
0x000000EE
0x000000B2
0x0000FFC6
0x000000E5
0x000000E0
0x000000FC
0x00000001
0x0000FEF9
0x000000B8
0x00000081
0x00000007
0x0000FED0
0x0000012B
0x0000FED9
0x0000FF56
0x0000FF27
0x000000A3
0x0000008D
0x000000D7
0x0000FEC9
0x000000C8
0x0000FFFA
0x0000FEBA
0x000000EE
0x0000FFB5
0x0000FF8A
0x000000A9
0x0000FE80
0x0000003A
0x0000000D
0x00000040
0x0000FFCE
0x0000FF36
0x0000FFDD
0x0000FF26
0x000000DF
0x00000048
0x0000FFA6
0x0000FF4E
0x0000FF7B
0x0000FF9B
0x0000FED0
0x0000FFAF
0x0000008C
0x0000FF3B
0x000000A2
0x0000FFC3
0x000000B6
0x0000008C
0x0000011E
0x0000FF75
0x0000FFCF
0x0000001C
0x0000FEE7
0x0000014C
0x0000FEB1
0x000000B1
0x0000FF10
0x0000FE9C
0x0000FF53
0x00000003
0x0000FFDE
0x000000B0
0x000000AF
0x0000FF5D
0x000000B1
0x0000FFA0
0x000000D4
0x0000FF8D
0x000001A2
0x0000FF84
0x000000DE
0x0000FE3B
0x00000052
0x0000FFC1
0x000000D8
0x0000FF48
0x00000090
0x000000D0
0x000000A3
0x0000FFC0
0x0000FEB8
0x0000FEEB
0x00000128
0x0000FED9
0x000000EC
0x0000006B
0x0000FED7
0x0000FEE2
0x000000DF
0x000000EC
0x0000FE8A
0x0000004F
0x0000FED7
0x00000009
0x0000FFB2
0x00000010
0x0000FEEA
0x00000062
0x0000FFD2
0x000000C2
0x0000FFDB
0x00000073
0x0000FF5E
0x0000009D
0x00000043
0x00000080
0x00000004
0x00000040
0x0000FF6D
0x00000056
0x0000FFB9
0x0000FED8
0x000000B0
0x0000FF51
0x0000FFA6
0x00000141
0x00000002
0x0000FF80
0x00000053
0x0000FEF2
0x00000052
0x0000FF0C
0x0000011C
0x00000064
0x00000000
0x000000DE
0x00000100
0x000000BF
0x0000002A
0x000000CC
0x0000FEAA
0x00000057
0x0000FF8C
0x0000013E
0x000000E5
0x0000FFF4
0x00000008
0x0000FFFE
0x000000C0
0x0000FED1
0x0000006C
0x0000FEF5
0x0000FEE1
0x0000011F
0x0000FFF6
0x000000DC
0x0000FEF7
0x0000FEF2
0x0000FEF0
0x0000FF13
0x0000FF9B
0x0000FEDC
0x000000F4
0x0000FF96
0x0000FFBE
0x0000FF1A
0x000000A6
0x00000018
0x000000B5
0x0000FF22
0x000000DC
0x00000022
0x0000FF3F
0x0000FFE6
0x0000012F
0x0000007F
0x0000FED8
0x000000B1
0x0000FF19
0x0000FEE2
0x0000FE83
0x0000FF3C
0x0000FFDD
0x0000FED3
0x000000FE
0x0000FEAD
0x00000120
0x0000FFF5
0x0000FF68
0x00000045
0x0000FF26
0x0000FF7E
0x0000FF47
0x0000FFEA
0x0000FF5B
0x0000011D
0x0000FF6E
0x0000FFC1
0x0000FF92
0x00000044
0x0000FECC
0x00000094
0x0000FF2A
0x00000130
0x0000FEB1
0x000000CA
0x0000FFFD
0x0000FED7
0x0000009A
0x0000FF49
0x0000FF29
0x000000F4
0x0000FFD7
0x0000FF62
0x00000109
0x000000CE
0x00000036
0x0000FEC1
0x00000147
0x0000FFBE
0x000000C9
0x0000007B
0x0000FF62
0x00000057
0x0000FECE
0x0000FF91
0x0000FF5D
0x000000E0
0x000000C3
0x0000FF2D
0x0000FEAF
0x000000C4
0x0000FF04
0x00000009
0x0000FF00
0x000000E8
0x00000082
0x0000006D
0x000000E3
0x0000FFCB
0x000000A6
0x000000F4
0x00000126
0x0000FF6D
0x00000111
0x0000FEF7
0x0000FE3A
0x0000006E
0x0000FF11
0x00000093
0x0000FFE2
0x0000FFB0
0x0000FF78
0x0000FEDA
0x000000E1
0x0000007E
0x0000FEE0
0x00000185
0x000000F7
0x0000FFC7
0x0000FF24
0x0000FE90
0x0000FFAB
0x000000D4
0x0000FF93
0x00000101
0x0000FFFF
0x0000FFFB
0x0000FF89
0x0000FF47
0x0000FE9E
0x0000FF73
0x0000FFF8
0x0000001B
0x0000FFFC
0x000000C2
0x0000002F
0x00000074
0x0000FEAA
0x000000D7
0x000000A7
0x0000FF3C
0x0000004B
0x0000012C
0x0000FF76
0x0000FEDF
0x0000FFB2
0x000000A7
0x0000FF82
0x0000010E
0x000000E9
0x00000018
0x000000F7
0x000000D2
0x0000010D
0x0000009E
0x00000124
0x0000FF1A
0x0000FFBB
0x0000FFCC
0x0000FF06
0x0000FF91
0x000000AE
0x0000FF9A
0x0000FFF7
0x0000008B
0x0000FF83
0x000000E7
0x0000FFAE
0x0000FED6
0x00000109
0x0000008D
0x00000099
0x0000010D
0x0000FF5F
0x00000028
0x0000FFD8
0x000000C8
0x0000FF69
0x00000030
0x0000FF94
0x0000FF85
0x0000FF2C
0x0000FF23
0x0000FED1
0x0000FF92
0x000000E7
0x0000FEE3
0x00000012
0x0000007F
0x0000FFC2
0x0000FFA1
0x0000FFBD
0x0000FEDE
0x000000BE
0x00000028
0x0000FF45
0x0000FF8F
0x0000FFC7
0x0000FF63
0x0000FFA6
0x0000FFF9
0x00000094
0x0000006B
0x000000A5
0x0000FF55
0x0000013E
0x00000073
0x000000AC
0x0000013C
0x0000009A
0x00000043
0x0000FEC8
0x0000FF4E
0x0000FEDE
0x00000026
0x00000103
0x00000057
0x0000FF99
0x0000FFFE
0x00000102
0x0000FF44
0x00000043
0x0000FEDD
0x0000FF9E
0x00000000
0x000000B2
0x0000FEBD
0x0000009C
0x000000A6
0x0000010B
0x0000FFBC
0x00000086
0x00000093
0x0000FFDD
0x00000022
0x0000FE86
0x00000071
0x0000FEE5
0x0000FF56
0x0000010E
0x0000FFA4
0x0000FF03
0x0000FE9A
0x0000FF18
0x0000FEF6
0x0000FEFE
0x0000FF9E
0x000000B4
0x0000000E
0x000000FA
0x000000F8
0x000000AC
0x0000009E
0x0000FFA4
0x0000FEE1
0x0000FF89
0x000000F0
0x0000FF73
0x0000FF1A
0x0000002B
0x0000010D
0x0000FF03
0x0000FF55
0x000000FB
0x00000134
0x0000FF82
0x0000FEFD
0x000000AE
0x000000FE
0x0000001A
0x0000FF84
0x000000C4
0x0000FE32
0x0000FFE0
0x0000FECF
0x000000B9
0x0000FFF1
0x000000A1
0x00000119
0x00000047
0x0000FED3
0x0000FEA2
0x0000008B
0x000000AD
0x0000010C
0x0000012B
0x0000002B
0x0000FECA
0x00000056
0x0000FED4
0x00000111
0x00000056
0x0000FF9E
0x00000076
0x00000076
0x0000008D
0x000000A2
0x0000FF67
0x00000135
0x00000085
0x00000058
0x0000FFE0
0x0000FF4F
0x0000FE88
0x0000FF4E
0x0000FF88
0x00000099
0x0000FF7E
0x0000FECD
0x0000FEE5
0x000000BF
0x00000129
0x0000FF90
0x00000087
0x0000FF65
0x0000FF0E
0x00000126
0x0000FE65
0x0000FFD5
0x000000D8
0x0000FFAC
0x0000FFD3
0x0000FF84
0x0000FF6F
0x00010000
0x0000FF65
0x00000059
0x00000130
0x0000FF97
0x0000000C
0x0000FF08
0x00000085
0x00000120
0x0000FF40
0x0000FF30
0x00000120
0x0000FFF8
0x0000FEEA
0x0000FFCC
0x00000016
0x0000FFB5
0x0000FF27
0x0000FE83
0x000000BF
0x0000FFB0
0x00000077
0x0000010E
0x0000FF96
0x0000FFF5
0x00000079
0x0000008D
0x00000008
0x00000002
0x0000FF36
0x0000007F
0x00000099
0x0000005B
0x00000087
0x0000FFCD
0x000000E9
0x00000041
0x0000FF4B
0x0000FF83
0x0000FECE
0x000000A0
0x0000000A
0x00000063
0x00000116
0x0000003F
0x0000FF00
0x0000FEE5
0x00000139
0x0000FE88
0x000000AE
0x00000125
0x0000FED1
0x0000FFF8
0x0000003C
0x000000EE
0x00000069
0x00000023
0x0000FF2E
0x0000FFAB
0x0000FEA0
0x0000FF32
0x0000FF56
0x00000065
0x00000136
0x0000FF82
0x00000037
0x000000CC
0x0000FEC7
0x0000FFFF
0x0000FFC0
0x0000FFE9
0x0000FFD2
0x0000FEF9
0x0000001C
0x0000FF12
0x0000FF6C
0x00000024
0x00000065
0x000000B7
0x0000FFC1
0x0000008E
0x000000C7
0x0000FEB3
0x0000FFFB
0x0000FF21
0x00000034
0x0000FFFD
0x0000007B
0x0000013D
0x00000122
0x0000012E
0x000000D8
0x0000FEDA
0x0000FECD
0x00000029
0x0000FF32
0x00000080
0x0000FFCD
0x000000A6
0x0000FED4
0x0000FF54
0x0000FF7F
0x00000027
0x0000FF80
0x0000FF11
0x0000FFDB
0x0000FF06
0x0000FF24
0x0000FF2E
0x0000FF1C
0x0000FF16
0x0000FEAA
0x000000F7
0x00000001
0x00000069
0x0000FF9D
0x000000A4
0x0000FEFF
0x0000007D
0x000000A3
0x00000084
0x0000FFE2
0x0000FFE9
0x0000FF99
0x00000067
0x0000FF34
0x0000007C
0x0000FFFF
0x0000FF61
0x00000008
0x00000129
0x0000004A
0x00000093
0x0000FF87
0x00000155
0x00000109
0x0000011E
0x0000FFA2
0x000000E2
0x0000FFD0
