00062902 00017581 FFF69AC0 0009D805 00050459 FFF7F101 FFFD6189 0006653A 0009B1A2 00070F7B FFFBE7E0 FFFA64A4 0003B966 FFFC4FBE 00084408 FFFBAB7E 00005736 FFFF101E FFF64275 0000935B FFF8BF47 FFF6851F 0005C56D FFFD0395 FFFEAF00 0008B8B0 0004B3F2 0000814B FFFBD520 0002F8E3 FFF4D2A9 FFFA970A 0008EE45 FFF9D062 FFFF7E0F 0003B3A0 0001FE32 FFFBBB2C FFF7E40B 0009D5A5 0007A81F FFFEF4C5 00053322 FFFBBB71 00077683 000596E5 FFFE2A98 00072ED3 0007052B 0007E043 00000ABF FFF7C77E 0005C673 00040F14 00003B7F FFF67802 00095AD3 FFF6C2CB FFFAAE0F FFF93685 000518ED 00046B48 0006B8D3 FFF641C0 0006470C FFFFCE30 FFF5C835 000771B0 FFFDA4F9 FFFC4DE0 00054D7F FFF3FB55 0001D0D0 00006991 0002016F FFFE6F20 FFF9ADDA FFFEE6BD FFF92A3D 0006FB8D 00024320 FFFD2857 FFFA6900 FFFBD761 FFFCD26A FFF67D33 FFFD751B 00046119 FFF9D6AA 00051088 FFFE149D 0005B129 00046171 0008F355 FFFBA72B FFFE7161 0000E197 FFF7364C 000A64B6 FFF58430 00058F8C FFF87EFC FFF4DE0E FFFA95FF 00001E64 FFFEEAB6 000581B4 0005784C FFFAE476 00058B97 FFFCF9F5 0006A7FA FFFC6771 000D11F0 FFFC1868 0006F687 FFF1D0BC 000291F4 FFFE0113 0006C6ED FFFA398F 000487F4 0006847F 00051E08 FFFDFB0C FFF5BC28 FFF7569C 0009433B FFF6C3D9 00076052 00035F02 FFF6B614 FFF70A9E 0006FF56 00076167 FFF44D95 00027AC6 FFF6B587 00004E24 FFFD8FFC 0000850B FFF7494C 000312D5 FFFE8F5B 000610AB FFFED064 00039956 FFFAEB27 0004EFF7 00021E3E 00040516 000026F3 000201E2 FFFB6635 0002B2C8 FFFDC68F FFF6BE4D 00058696 FFFA81E5 FFFD2DF1 000A0BE7 000012A3 FFFBFC2D 00029CCF FFF78A89 000292B5 FFF85B36 0008E07C 000324FA 0000021F 0006F405 000807C6 0005FD50 0001573C 000661E7 FFF54E8C 0002BC6E FFFC586D 0009F1C7 00072F3C FFFF9BCE 000045AA FFFFEE7D 0006066C FFF68035 0003627E FFF7A13D FFF700FA 0008FC2A FFFFAA57 0006E5C4 FFF7B6D9 FFF78D5F FFF77B90 FFF8920D FFFCD098 FFF6DCC9 0007A604 FFFCAF91 FFFDEBC5 FFF8CAED 00053387 0000C3AC 0005AAE2 FFF90C33 0006E47D 0001122B FFF9F764 FFFF2A3B 00097BC3 0003FA1C FFF6BA33 00058867 FFF8C489 FFF70C1E FFF410AA FFF9DED5 FFFEE7D0 FFF69677 0007F66C FFF56274 00090772 FFFFA30A FFFB3CD0 0002297E FFF92AB5 FFFBEE05 FFFA3004 FFFF4F34 FFFAD2CA 0008EFAE FFFB6E33 FFFE044E FFFC8D78 000226E7 FFF65E36 0004A5DA FFF948FA 0009830C FFF5812C 00065566 FFFFE168 FFF6B53E 0004D18F FFFA4151 FFF9444A 0007A682 FFFEB5C6 FFFB09BA 00084D14 00067470 0001B7A5 FFF60447 000A3FF4 FFFDEDAB 00064CE8 0003D8E0 FFFB0BE6 0002BFDB FFF66A62 FFFC8441 FFFAE144 0007043E 00061D55 FFF9666B FFF576B2 000623C8 FFF81C5B 00004BE6 FFF7FACD 00074564 000411B3 00036F13 00071C02 FFFE5376 00053654 0007A5D4 000932CC FFFB6342 00088D9F FFF7B566 FFF1CDF3 0003746E FFF8863C 00049FC8 FFFF0E61 FFFD789D FFFBBDB2 FFF6CD30 0007086D 0003F438 FFF6F827 000C2DD5 0007BFA8 FFFE349F FFF91BEC FFF47FC8 FFFD53CA 0006A650 FFFC94DE 00080F10 FFFFF4F3 FFFFD41A FFFC46F8 FFFA338C FFF4EA12 FFFB92E0 FFFFB9AC 0000DF67 FFFFD8B0 0006144A 00017DCB 0003A6C5 FFF54997 0006BC25 0005393C FFF9DA91 00025D74 00096740 FFFBAF19 FFF6F5FC FFFD8DA8 00053F11 FFFC08C7 00087273 00074B61 0000C64B 0007BE18 000694D5 00086C4E 0004F0E6 00092263 FFF8CA6B FFFDD6A0 FFFE5B47 FFF82BAC FFFC8521 000577A4 FFFCCD0A FFFFB06D 00045AF0 FFFC1035 0007397B FFFD6DB8 FFF6AE28 000848DC 00046BFE 0004CE7A 00086A1C FFFAF078 00014732 FFFEBEC1 00064532 FFFB40B6 00018014 FFFC9CAD FFFC2200 FFF95E14 FFF91402 FFF6803F FFFC894B 00073F48 FFF7108F 0000973D 0003FFB2 FFFE0EDD FFFD02C1 FFFDE354 FFF6EE90 0005F10C 00014788 FFFA212A FFFC74B2 FFFE34B3 FFFB10D2 FFFD2E3B FFFFC136 0004A2B1 0003589A 000528CB FFFAA618 0009F1D3 00039C64 0005642E 0009E19B 0004D61D 00021F36 FFF63A22 FFFA6A3E FFF6EFB3 000132B5 00081EFB 0002BECA FFFCC0A7 FFFFEC92 00081646 FFFA1FD0 00021F36 FFF6E01A FFFCED2D 000004EA 00059227 FFF5E12D 0004E4A3 00053022 00085A0B FFFDDCEF 000435CE 00049ACF FFFEE661 00011144 FFF42870 00038FA7 FFF723E6 FFFAADD8 00087759 FFFD1BAB FFF815F1 FFF4CA08 FFF8BBBF FFF7AA33 FFF7EEC8 FFFCE8B6 0005A520 000070D4 0007D0A4 0007C01A 000565C0 0004F612 FFFD1FF8 FFF706A3 FFFC43D5 0007847B FFFB9345 FFF8CA8A 00015A5F 0008695B FFF814DE FFFAA1D4 0007DF19 0009A4AC FFFC0E7E FFF7E3FA 00057501 0007F33E 0000D39B FFFC1DA2 000624DB FFF18929 FFFEF860 FFF6728D 0005CAAF FFFF87B0 00050F9F 0008CF4C 00023E09 FFF695C7 FFF50B2F 00045ED0 00056D43 00086664 00095AEE 00015C05 FFF64FFB 0002B22A FFF69A74 00088F14 0002B697 FFFCEE9A 0003B350 0003B0CE 00046EF8 00051457 FFFB3251 0009A8DE 00042CE4 0002C538 FFFEFB53 FFFA74EB FFF43E5A FFFA6823 FFFC3F71 0004CEAF FFFBE8F1 FFF6644E FFF72088 0005FD28 00094860 FFFC7A0C 000439C5 FFFB26D9 FFF86F01 000937E0 FFF32536 FFFEA6A3 0006C567 FFFD5C7B FFFE944D FFFC1DFE FFFB7569 FFFFF8B4 FFFB234D 0002CD18 0009828A FFFCB52D 000061F1 FFF83E79 000428F5 000907F0 FFF9F9A3 FFF97951 000904C8 FFFFBCEF FFF74E23 FFFE5A21 0000B6F1 FFFDA477 FFF93689 FFF4177B 0005FE67 FFFD79FB 0003B9B2 00087023 FFFCAF9B FFFFA6B6 0003CA16 00046CE7 000046DA 000010E6 FFF9AAC4 0003FCBF 0004CF3D 0002DF7E 00043C4B FFFE645F 00074E52 00020AED FFFA54D9 FFFC172F FFF66EE6 00050029 00005747 00031E66 0008B48D 0001FA7C FFF7FD35 FFF725F9 0009CDFA FFF438FA 000574A7 00092AA7 FFF6871B FFFFBF5A 0001E082 00077410 00034B66 00011D29 FFF96BB6 FFFD51E8 FFF4FA32 FFF98B4C FFFAAE4C 00032FA7 0009B5FC FFFC0DB1 0001BFA0 000664B2 FFF630EB FFFFF749 FFFDF90C FFFF45C4 FFFE8EAC FFF7C377 0000E4D3 FFF88DA0 FFFB5B34 000126E7 00032D70 0005B8A1 FFFE06A7 000473A7 0006398C FFF596B8 FFFFD745 FFF9024E 0001A59C FFFFE752 0003D998 0009EBCE 000913BC 000976A0 0006C044 FFF6CA2C FFF663B1 00014A3E FFF98D22 00040481 FFFE6513 0005378A FFF69EA0 FFFA9F8F FFFBF3A2 00013BA5 FFFBF9DA FFF880CE FFFED457 FFF82A54 FFF91DF8 FFF9688A FFF8DD38 FFF8AD67 FFF54E96 0007BAC2 000008DD 00034D76 FFFCE79F 000523E3 FFF7F163 0003EEE3 00051E8E 000425A6 FFFF0E85 FFFF41A3 FFFCC13C 000339F9 FFF998CF 0003E573 FFFFF3E1 FFFB04EF 00004365 00094E98 00025219 00049E4F FFFC3377 000AAA8E 00084C9E 0008F07E FFFD0918 00071707 FFFE7E44