00062902 00017581 FFF69AC0 0009D805 00050459 FFF7F101 FFFD6189 0006653A 0009B1A2 00070F7B FFFBE7E0 FFFA64A4 0003B966 FFFC4FBE 00084408 FFFBAB7E 00005736 FFFF101E FFF64275 0000935B FFF8BF47 FFF6851F 0005C56D FFFD0395 FFFEAF00 0008B8B0 0004B3F2 0000814B FFFBD520 0002F8E3 FFF4D2A9 FFFA970A 0008EE45 FFF9D062 FFFF7E0F 0003B3A0 0001FE32 FFFBBB2C FFF7E40B 0009D5A5 0007A81F FFFEF4C5 00053322 FFFBBB71 00077683 000596E5 FFFE2A98 00072ED3 0007052B 0007E043 00000ABF FFF7C77E 0005C673 00040F14 00003B7F FFF67802 00095AD3 FFF6C2CB FFFAAE0F FFF93685 000518ED 00046B48 0006B8D3 FFF641C0