00C5 002E FED4 013B 00A0 FEFF FFAD 00CC 0136 00E1 FF7D FF4D 0077 FF8A 0108 FF76 000A FFE3 FEC9 0012 FF18 FED1 00B8 FFA1 FFD6 0117 0096 0010 FF7B 005F FE9B FF53 011D FF3B FFF0 0076 003F FF78 FEFD 013A 00F5 FFDF 00A6 FF78 00EE 00B2 FFC6 00E5 00E0 00FC 0001 FEF9 00B8 0081 0007 FED0 012B FED9 FF56 FF27 00A3 008D 00D7 FEC9
00C8 FFFA FEBA 00EE FFB5 FF8A 00A9 FE80 003A 000D 0040 FFCE FF36 FFDD FF26 00DF 0048 FFA6 FF4E FF7B FF9B FED0 FFAF 008C FF3B 00A2 FFC3 00B6 008C 011E FF75 FFCF 001C FEE7 014C FEB1 00B1 FF10 FE9C FF53 0003 FFDE 00B0 00AF FF5D 00B1 FFA0 00D4 FF8D 01A2 FF84 00DE FE3B 0052 FFC1 00D8 FF48 0090 00D0 00A3 FFC0 FEB8 FEEB 0128
FED9 00EC 006B FED7 FEE2 00DF 00EC FE8A 004F FED7 0009 FFB2 0010 FEEA 0062 FFD2 00C2 FFDB 0073 FF5E 009D 0043 0080 0004 0040 FF6D 0056 FFB9 FED8 00B0 FF51 FFA6 0141 0002 FF80 0053 FEF2 0052 FF0C 011C 0064 0000 00DE 0100 00BF 002A 00CC FEAA 0057 FF8C 013E 00E5 FFF4 0008 FFFE 00C0 FED1 006C FEF5 FEE1 011F FFF6 00DC FEF7
FEF2 FEF0 FF13 FF9B FEDC 00F4 FF96 FFBE FF1A 00A6 0018 00B5 FF22 00DC 0022 FF3F FFE6 012F 007F FED8 00B1 FF19 FEE2 FE83 FF3C FFDD FED3 00FE FEAD 0120 FFF5 FF68 0045 FF26 FF7E FF47 FFEA FF5B 011D FF6E FFC1 FF92 0044 FECC 0094 FF2A 0130 FEB1 00CA FFFD FED7 009A FF49 FF29 00F4 FFD7 FF62 0109 00CE 0036 FEC1 0147 FFBE 00C9
007B FF62 0057 FECE FF91 FF5D 00E0 00C3 FF2D FEAF 00C4 FF04 0009 FF00 00E8 0082 006D 00E3 FFCB 00A6 00F4 0126 FF6D 0111 FEF7 FE3A 006E FF11 0093 FFE2 FFB0 FF78 FEDA 00E1 007E FEE0 0185 00F7 FFC7 FF24 FE90 FFAB 00D4 FF93 0101 FFFF FFFB FF89 FF47 FE9E FF73 FFF8 001B FFFC 00C2 002F 0074 FEAA 00D7 00A7 FF3C 004B 012C FF76
FEDF FFB2 00A7 FF82 010E 00E9 0018 00F7 00D2 010D 009E 0124 FF1A FFBB FFCC FF06 FF91 00AE FF9A FFF7 008B FF83 00E7 FFAE FED6 0109 008D 0099 010D FF5F 0028 FFD8 00C8 FF69 0030 FF94 FF85 FF2C FF23 FED1 FF92 00E7 FEE3 0012 007F FFC2 FFA1 FFBD FEDE 00BE 0028 FF45 FF8F FFC7 FF63 FFA6 FFF9 0094 006B 00A5 FF55 013E 0073 00AC
013C 009A 0043 FEC8 FF4E FEDE 0026 0103 0057 FF99 FFFE 0102 FF44 0043 FEDD FF9E 0000 00B2 FEBD 009C 00A6 010B FFBC 0086 0093 FFDD 0022 FE86 0071 FEE5 FF56 010E FFA4 FF03 FE9A FF18 FEF6 FEFE FF9E 00B4 000E 00FA 00F8 00AC 009E FFA4 FEE1 FF89 00F0 FF73 FF1A 002B 010D FF03 FF55 00FB 0134 FF82 FEFD 00AE 00FE 001A FF84 00C4
FE32 FFE0 FECF 00B9 FFF1 00A1 0119 0047 FED3 FEA2 008B 00AD 010C 012B 002B FECA 0056 FED4 0111 0056 FF9E 0076 0076 008D 00A2 FF67 0135 0085 0058 FFE0 FF4F FE88 FF4E FF88 0099 FF7E FECD FEE5 00BF 0129 FF90 0087 FF65 FF0E 0126 FE65 FFD5 00D8 FFAC FFD3 FF84 FF6F 10000 FF65 0059 0130 FF97 000C FF08 0085 0120 FF40 FF30 0120
FFF8 FEEA FFCC 0016 FFB5 FF27 FE83 00BF FFB0 0077 010E FF96 FFF5 0079 008D 0008 0002 FF36 007F 0099 005B 0087 FFCD 00E9 0041 FF4B FF83 FECE 00A0 000A 0063 0116 003F FF00 FEE5 0139 FE88 00AE 0125 FED1 FFF8 003C 00EE 0069 0023 FF2E FFAB FEA0 FF32 FF56 0065 0136 FF82 0037 00CC FEC7 FFFF FFC0 FFE9 FFD2 FEF9 001C FF12 FF6C
0024 0065 00B7 FFC1 008E 00C7 FEB3 FFFB FF21 0034 FFFD 007B 013D 0122 012E 00D8 FEDA FECD 0029 FF32 0080 FFCD 00A6 FED4 FF54 FF7F 0027 FF80 FF11 FFDB FF06 FF24 FF2E FF1C FF16 FEAA 00F7 0001 0069 FF9D 00A4 FEFF 007D 00A3 0084 FFE2 FFE9 FF99 0067 FF34 007C FFFF FF61 0008 0129 004A 0093 FF87 0155 0109 011E FFA2 00E2 FFD0
